unsigned char ___models_sine_model_torch_tflite[] = {
  0x1c, 0x00, 0x00, 0x00, 0x54, 0x46, 0x4c, 0x33, 0x14, 0x00, 0x20, 0x00,
  0x1c, 0x00, 0x18, 0x00, 0x14, 0x00, 0x10, 0x00, 0x0c, 0x00, 0x00, 0x00,
  0x08, 0x00, 0x04, 0x00, 0x14, 0x00, 0x00, 0x00, 0x1c, 0x00, 0x00, 0x00,
  0x9c, 0x00, 0x00, 0x00, 0xf4, 0x00, 0x00, 0x00, 0x0c, 0x07, 0x00, 0x00,
  0x1c, 0x07, 0x00, 0x00, 0xdc, 0x0a, 0x00, 0x00, 0x03, 0x00, 0x00, 0x00,
  0x01, 0x00, 0x00, 0x00, 0x10, 0x00, 0x00, 0x00, 0x00, 0x00, 0x0a, 0x00,
  0x10, 0x00, 0x0c, 0x00, 0x08, 0x00, 0x04, 0x00, 0x0a, 0x00, 0x00, 0x00,
  0x0c, 0x00, 0x00, 0x00, 0x1c, 0x00, 0x00, 0x00, 0x34, 0x00, 0x00, 0x00,
  0x0f, 0x00, 0x00, 0x00, 0x73, 0x65, 0x72, 0x76, 0x69, 0x6e, 0x67, 0x5f,
  0x64, 0x65, 0x66, 0x61, 0x75, 0x6c, 0x74, 0x00, 0x01, 0x00, 0x00, 0x00,
  0x04, 0x00, 0x00, 0x00, 0x8c, 0xff, 0xff, 0xff, 0x09, 0x00, 0x00, 0x00,
  0x04, 0x00, 0x00, 0x00, 0x02, 0x00, 0x00, 0x00, 0x31, 0x31, 0x00, 0x00,
  0x01, 0x00, 0x00, 0x00, 0x04, 0x00, 0x00, 0x00, 0x7e, 0xf9, 0xff, 0xff,
  0x04, 0x00, 0x00, 0x00, 0x1b, 0x00, 0x00, 0x00, 0x6f, 0x6e, 0x6e, 0x78,
  0x5f, 0x74, 0x66, 0x5f, 0x5f, 0x74, 0x66, 0x5f, 0x47, 0x65, 0x6d, 0x6d,
  0x5f, 0x30, 0x5f, 0x31, 0x63, 0x38, 0x63, 0x33, 0x33, 0x31, 0x33, 0x00,
  0x02, 0x00, 0x00, 0x00, 0x34, 0x00, 0x00, 0x00, 0x04, 0x00, 0x00, 0x00,
  0xdc, 0xff, 0xff, 0xff, 0x0c, 0x00, 0x00, 0x00, 0x04, 0x00, 0x00, 0x00,
  0x13, 0x00, 0x00, 0x00, 0x43, 0x4f, 0x4e, 0x56, 0x45, 0x52, 0x53, 0x49,
  0x4f, 0x4e, 0x5f, 0x4d, 0x45, 0x54, 0x41, 0x44, 0x41, 0x54, 0x41, 0x00,
  0x08, 0x00, 0x0c, 0x00, 0x08, 0x00, 0x04, 0x00, 0x08, 0x00, 0x00, 0x00,
  0x0b, 0x00, 0x00, 0x00, 0x04, 0x00, 0x00, 0x00, 0x13, 0x00, 0x00, 0x00,
  0x6d, 0x69, 0x6e, 0x5f, 0x72, 0x75, 0x6e, 0x74, 0x69, 0x6d, 0x65, 0x5f,
  0x76, 0x65, 0x72, 0x73, 0x69, 0x6f, 0x6e, 0x00, 0x0d, 0x00, 0x00, 0x00,
  0x14, 0x06, 0x00, 0x00, 0x0c, 0x06, 0x00, 0x00, 0xf8, 0x05, 0x00, 0x00,
  0xa0, 0x05, 0x00, 0x00, 0x50, 0x05, 0x00, 0x00, 0x00, 0x05, 0x00, 0x00,
  0xf0, 0x00, 0x00, 0x00, 0xa0, 0x00, 0x00, 0x00, 0x98, 0x00, 0x00, 0x00,
  0x90, 0x00, 0x00, 0x00, 0x88, 0x00, 0x00, 0x00, 0x68, 0x00, 0x00, 0x00,
  0x04, 0x00, 0x00, 0x00, 0x3a, 0xfa, 0xff, 0xff, 0x04, 0x00, 0x00, 0x00,
  0x54, 0x00, 0x00, 0x00, 0x0c, 0x00, 0x00, 0x00, 0x08, 0x00, 0x0e, 0x00,
  0x08, 0x00, 0x04, 0x00, 0x08, 0x00, 0x00, 0x00, 0x10, 0x00, 0x00, 0x00,
  0x24, 0x00, 0x00, 0x00, 0x00, 0x00, 0x06, 0x00, 0x08, 0x00, 0x04, 0x00,
  0x06, 0x00, 0x00, 0x00, 0x04, 0x00, 0x00, 0x00, 0x00, 0x00, 0x00, 0x00,
  0x00, 0x00, 0x0a, 0x00, 0x10, 0x00, 0x0c, 0x00, 0x08, 0x00, 0x04, 0x00,
  0x0a, 0x00, 0x00, 0x00, 0x01, 0x00, 0x00, 0x00, 0x02, 0x00, 0x00, 0x00,
  0x04, 0x00, 0x00, 0x00, 0x06, 0x00, 0x00, 0x00, 0x32, 0x2e, 0x31, 0x31,
  0x2e, 0x30, 0x00, 0x00, 0x9a, 0xfa, 0xff, 0xff, 0x04, 0x00, 0x00, 0x00,
  0x10, 0x00, 0x00, 0x00, 0x31, 0x2e, 0x35, 0x2e, 0x30, 0x00, 0x00, 0x00,
  0x00, 0x00, 0x00, 0x00, 0x00, 0x00, 0x00, 0x00, 0x08, 0xf7, 0xff, 0xff,
  0x0c, 0xf7, 0xff, 0xff, 0x10, 0xf7, 0xff, 0xff, 0xc2, 0xfa, 0xff, 0xff,
  0x04, 0x00, 0x00, 0x00, 0x40, 0x00, 0x00, 0x00, 0x97, 0x36, 0xbb, 0xbe,
  0x01, 0x5e, 0xf3, 0x3e, 0x13, 0x01, 0x85, 0xbf, 0x64, 0xab, 0x87, 0x3d,
  0x3b, 0x59, 0x01, 0xbf, 0x50, 0x6c, 0xa6, 0x3c, 0x89, 0xe3, 0xeb, 0x3e,
  0xd9, 0x82, 0xc7, 0xbe, 0x19, 0x46, 0x20, 0xba, 0xd8, 0x36, 0xcb, 0x3d,
  0x8f, 0x6f, 0xcb, 0x3e, 0xfa, 0xa7, 0x4b, 0x3d, 0x3c, 0xe5, 0x4d, 0x3f,
  0x6e, 0x7f, 0x79, 0x3e, 0x55, 0x83, 0x5d, 0x3b, 0xda, 0xca, 0x8a, 0x3c,
  0x0e, 0xfb, 0xff, 0xff, 0x04, 0x00, 0x00, 0x00, 0x00, 0x04, 0x00, 0x00,
  0xf1, 0x57, 0xd6, 0x3e, 0x1c, 0xd5, 0x76, 0x3e, 0xac, 0x3f, 0xa6, 0xbd,
  0x72, 0x03, 0x8b, 0x3e, 0x58, 0x97, 0x1f, 0x3d, 0xd6, 0x82, 0x10, 0x3f,
  0x00, 0xe3, 0xdf, 0x3c, 0xba, 0x05, 0x60, 0x3d, 0xec, 0x8c, 0x1c, 0x3e,
  0x08, 0xd8, 0x8a, 0xbd, 0xb3, 0x6c, 0xe1, 0x3e, 0xd4, 0x0b, 0xb3, 0x3d,
  0x7a, 0x76, 0xdc, 0x3e, 0x14, 0xd5, 0xdf, 0xbd, 0x27, 0xfd, 0xac, 0x3e,
  0x70, 0x38, 0x37, 0x3d, 0x2d, 0x49, 0xe5, 0x3e, 0x5b, 0x1a, 0xbf, 0xbe,
  0xa4, 0x6a, 0x7d, 0xbe, 0xb3, 0xe4, 0x80, 0xbe, 0x9c, 0x5b, 0x44, 0xbe,
  0x1e, 0xc4, 0xd6, 0x3d, 0xd8, 0x78, 0x93, 0x3d, 0xf2, 0x48, 0x0e, 0x3e,
  0x47, 0x3c, 0x33, 0xbe, 0x00, 0x82, 0x8e, 0xbb, 0xcc, 0xd7, 0x44, 0x3e,
  0x26, 0xd1, 0x54, 0xbf, 0xcf, 0x11, 0xa7, 0x3d, 0xf4, 0xba, 0x2e, 0xbe,
  0x71, 0x14, 0x00, 0x3f, 0xe0, 0x52, 0xb0, 0xbd, 0x88, 0x45, 0x33, 0x3c,
  0x8f, 0x1a, 0x84, 0xbe, 0x06, 0x53, 0x54, 0x3e, 0xfc, 0xca, 0x0a, 0x3e,
  0x8a, 0xad, 0x18, 0xbe, 0xb8, 0x9f, 0x92, 0xbe, 0xe2, 0x41, 0x66, 0x3e,
  0xba, 0x74, 0x5b, 0xbe, 0x10, 0x56, 0x76, 0x3e, 0x4e, 0x45, 0x53, 0xbe,
  0xbe, 0xba, 0xf8, 0x3f, 0xfe, 0x48, 0x48, 0xbe, 0xef, 0x77, 0x0a, 0xc0,
  0x6c, 0x61, 0xcf, 0x3d, 0x38, 0x7a, 0x7b, 0x3e, 0x76, 0xb7, 0x54, 0x3e,
  0x74, 0x34, 0x04, 0xbe, 0xaa, 0x84, 0x2e, 0xbe, 0xf8, 0xd3, 0x07, 0x3e,
  0xe4, 0xf3, 0xce, 0xbd, 0x5c, 0x5f, 0x1b, 0x3e, 0xf0, 0xfe, 0x72, 0xbd,
  0x9a, 0x71, 0x12, 0x3e, 0x60, 0xe7, 0x46, 0xbe, 0xba, 0x30, 0x01, 0xbe,
  0xc4, 0x18, 0x9c, 0x3d, 0x38, 0x7b, 0x58, 0x3d, 0xf4, 0x89, 0x82, 0xbd,
  0x02, 0x98, 0x18, 0x3e, 0xfa, 0x07, 0x2e, 0x3e, 0xf6, 0xa4, 0x39, 0xbe,
  0x96, 0xab, 0x08, 0xbe, 0xa3, 0x95, 0x2c, 0x3e, 0x9c, 0x7b, 0x45, 0x3f,
  0x2c, 0x83, 0xb5, 0xbd, 0xcc, 0x2f, 0xa5, 0x3e, 0x84, 0x9a, 0x12, 0xbe,
  0x58, 0x68, 0xa3, 0x3d, 0x38, 0x29, 0x07, 0xbd, 0x19, 0xc2, 0x93, 0xbe,
  0x00, 0xa5, 0xf8, 0xbe, 0x6e, 0xde, 0x2e, 0xbe, 0x3f, 0x8c, 0x9d, 0xbf,
  0x3a, 0xf8, 0x0c, 0xbe, 0xfb, 0x64, 0xb0, 0xbf, 0x44, 0x01, 0x23, 0xbe,
  0xcc, 0x6c, 0xd4, 0x3e, 0x70, 0x68, 0x41, 0x3d, 0x1c, 0xc7, 0x9d, 0x3d,
  0x66, 0xc4, 0x6e, 0xbe, 0x54, 0x22, 0x28, 0xbe, 0x14, 0x6c, 0xaa, 0xbd,
  0xc0, 0x1f, 0x20, 0x3d, 0x86, 0x42, 0x61, 0xbe, 0x64, 0x9b, 0xdc, 0xbd,
  0x58, 0x42, 0x19, 0xbe, 0x00, 0x9e, 0x35, 0x3a, 0x50, 0x84, 0xbe, 0xbd,
  0xf0, 0xea, 0x8d, 0xbc, 0x24, 0x79, 0x2d, 0xbe, 0x98, 0xb7, 0x2f, 0xbe,
  0xd2, 0x59, 0x15, 0xbe, 0x9c, 0x41, 0xaf, 0xbd, 0x50, 0x0e, 0x4a, 0xbe,
  0x1e, 0x42, 0xeb, 0x3e, 0xc8, 0xe0, 0x6e, 0xbe, 0xf6, 0x42, 0x5c, 0x3e,
  0xaf, 0xb2, 0xf1, 0xbc, 0xb0, 0xc7, 0x58, 0xbe, 0xd9, 0x36, 0xbc, 0x3d,
  0xc8, 0xdf, 0x8c, 0xbd, 0xe9, 0x7a, 0x92, 0xbd, 0x30, 0x55, 0xcd, 0xbe,
  0x50, 0x81, 0x7e, 0xbe, 0x33, 0xf2, 0x61, 0x3c, 0xc7, 0x96, 0xf1, 0xbe,
  0xc3, 0x51, 0xe2, 0x3d, 0x00, 0x17, 0x52, 0xbe, 0x2b, 0xce, 0x08, 0x3f,
  0xf2, 0xea, 0x3b, 0xbe, 0xfc, 0x4c, 0xbc, 0x3d, 0x8f, 0x34, 0x22, 0x3e,
  0x14, 0x29, 0x04, 0x3e, 0x1e, 0xc1, 0x55, 0x3e, 0xa0, 0x34, 0x69, 0x3e,
  0x9d, 0xc3, 0x00, 0x3e, 0x88, 0xda, 0x80, 0x3d, 0xf4, 0xbd, 0x0f, 0x3d,
  0x9d, 0xba, 0x0a, 0xbf, 0x0c, 0x9d, 0x3f, 0xbe, 0x19, 0xf9, 0x31, 0x3e,
  0x2b, 0x15, 0x6c, 0xc0, 0x68, 0x83, 0x3b, 0x3e, 0xe4, 0xef, 0xb3, 0x3d,
  0xe3, 0x3a, 0x8c, 0x3e, 0xca, 0x67, 0x0a, 0xbe, 0xc2, 0x44, 0x3a, 0x3e,
  0xa3, 0x01, 0x3e, 0x3d, 0x38, 0xba, 0x03, 0x3d, 0x3c, 0x48, 0x9a, 0xbe,
  0x84, 0xee, 0xd6, 0x3d, 0xdd, 0xcd, 0x90, 0x3e, 0x44, 0x8f, 0xea, 0xbd,
  0x85, 0x6c, 0xb6, 0x3e, 0x66, 0x53, 0x59, 0xbd, 0x86, 0xa3, 0x0d, 0xbe,
  0x8e, 0xe3, 0x9a, 0xbc, 0x29, 0x33, 0x98, 0xbe, 0x0a, 0x64, 0x4c, 0x3e,
  0x54, 0xd5, 0x82, 0xbd, 0xa9, 0x96, 0x74, 0xbe, 0xac, 0x54, 0xaf, 0xbd,
  0x4c, 0x40, 0x3f, 0xbe, 0x88, 0x98, 0xb6, 0x3d, 0x80, 0x27, 0x46, 0x3e,
  0x3c, 0x02, 0x71, 0xbe, 0x20, 0xd3, 0x6d, 0x3d, 0x5c, 0x3f, 0x04, 0x3e,
  0x68, 0xae, 0x39, 0x3d, 0xf8, 0x55, 0xb6, 0xbd, 0x00, 0x9e, 0x05, 0x3e,
  0x08, 0x88, 0x06, 0x3e, 0x64, 0x73, 0xbf, 0x3d, 0x50, 0xf0, 0x33, 0xbd,
  0x08, 0x94, 0x87, 0xbd, 0xd0, 0x18, 0xdb, 0x3c, 0xd0, 0xe4, 0x34, 0xbd,
  0x98, 0x93, 0x98, 0xbd, 0xdd, 0x42, 0xf0, 0x3e, 0x81, 0xc3, 0x1b, 0xbe,
  0x20, 0xbf, 0xca, 0xbc, 0x80, 0x7a, 0xb3, 0xbe, 0x80, 0x14, 0x6f, 0x3b,
  0x3e, 0xf8, 0xc6, 0xbd, 0x60, 0x2e, 0x76, 0x3d, 0xb0, 0x02, 0xc9, 0x3d,
  0x7d, 0x2e, 0x19, 0xbf, 0x84, 0xf2, 0xbc, 0xbd, 0x92, 0x12, 0x15, 0x3e,
  0x09, 0x27, 0xf4, 0xbe, 0x5e, 0xe9, 0x8c, 0x3b, 0x08, 0x58, 0x1a, 0xbe,
  0xee, 0xe0, 0x88, 0x3e, 0xfa, 0x50, 0x65, 0xbe, 0xb8, 0xe8, 0xcb, 0xbd,
  0xe1, 0xdd, 0x83, 0x3d, 0x2c, 0x3b, 0x23, 0x3e, 0xc3, 0xd7, 0xc3, 0x3d,
  0x28, 0x4a, 0x62, 0xbe, 0xa3, 0xf9, 0x31, 0xbe, 0xb0, 0x9a, 0x21, 0xbd,
  0x76, 0xef, 0x65, 0x3e, 0x66, 0x0f, 0x4e, 0x3c, 0xd0, 0x97, 0x84, 0xbd,
  0xf5, 0x9d, 0xa7, 0x3d, 0xbe, 0x53, 0x04, 0xbe, 0xb4, 0xa7, 0x3a, 0xbe,
  0xe4, 0xd9, 0x3a, 0x3e, 0xe7, 0xd6, 0x04, 0xbe, 0x28, 0x47, 0x4d, 0xbd,
  0xd4, 0xde, 0xcb, 0xbe, 0x13, 0x5a, 0xdf, 0x3e, 0x58, 0xf4, 0x41, 0x3e,
  0x75, 0xc4, 0xa1, 0x3e, 0x90, 0x80, 0x32, 0xbe, 0x97, 0xa7, 0x5c, 0x3e,
  0xf6, 0xea, 0x4f, 0xbe, 0xf2, 0x8b, 0xbb, 0x3d, 0x68, 0xed, 0x0d, 0x3f,
  0xd6, 0x6c, 0x57, 0x3e, 0xf6, 0x9a, 0x5c, 0x3e, 0x3b, 0xcd, 0x17, 0x3f,
  0x2e, 0x9b, 0x03, 0x3e, 0x86, 0xb0, 0x42, 0xbe, 0xb5, 0xc4, 0x1a, 0xbf,
  0x02, 0x73, 0x6f, 0xbe, 0x96, 0x21, 0xbd, 0x3d, 0x28, 0x60, 0xfb, 0xbd,
  0x28, 0x15, 0x4e, 0xbd, 0xcd, 0x7f, 0x1d, 0xbe, 0xd0, 0x98, 0x3a, 0xbd,
  0x86, 0x2e, 0x34, 0xbe, 0x40, 0x46, 0x27, 0xbe, 0xf3, 0x61, 0x95, 0x3d,
  0x20, 0x2a, 0x98, 0xbd, 0x34, 0x0a, 0x1e, 0x3e, 0x0c, 0x41, 0xa4, 0xbd,
  0x10, 0xcb, 0x3b, 0xbe, 0x68, 0xac, 0x34, 0xbd, 0xd0, 0x30, 0xf8, 0xbd,
  0x3c, 0x1b, 0xb1, 0xbd, 0xfc, 0xb5, 0x73, 0xbe, 0xe4, 0xb0, 0x38, 0x3d,
  0xe3, 0x85, 0x37, 0xbe, 0x8e, 0xab, 0x00, 0x3e, 0x1b, 0xa1, 0xb7, 0x3d,
  0x10, 0xe5, 0x36, 0x3e, 0x94, 0x9b, 0x69, 0xbe, 0x48, 0x1d, 0x38, 0x3e,
  0x10, 0x4d, 0x35, 0xbe, 0x85, 0xe6, 0x0d, 0x3e, 0xd2, 0x69, 0x70, 0x3e,
  0x8c, 0xd4, 0xc9, 0x3c, 0x65, 0x01, 0x3c, 0x3d, 0xf3, 0xb6, 0x55, 0xbd,
  0x8c, 0xc1, 0x55, 0xbe, 0x44, 0x27, 0xf4, 0xbc, 0xc2, 0x22, 0x7e, 0xbe,
  0x94, 0xf3, 0x05, 0x3e, 0x54, 0x3d, 0x26, 0x3e, 0xd0, 0x19, 0x72, 0x3e,
  0xf2, 0x5b, 0xab, 0xbd, 0x20, 0x57, 0x52, 0xbe, 0xe8, 0x39, 0x66, 0x3d,
  0xe0, 0x6b, 0x0d, 0x3e, 0x8e, 0xcc, 0x7e, 0xbe, 0xb0, 0x03, 0xa7, 0xbd,
  0xea, 0x75, 0x19, 0xbe, 0xa0, 0x26, 0x3e, 0xbd, 0x7a, 0x85, 0x17, 0xbe,
  0xca, 0xbc, 0x01, 0xbe, 0xf8, 0x89, 0xa2, 0xbd, 0x02, 0x2b, 0x85, 0xbe,
  0xc8, 0x0c, 0x52, 0x3e, 0x1a, 0xff, 0xff, 0xff, 0x04, 0x00, 0x00, 0x00,
  0x40, 0x00, 0x00, 0x00, 0xb3, 0xdb, 0xc4, 0x3d, 0x6f, 0x0f, 0x36, 0x3f,
  0x20, 0xe5, 0x6f, 0xbe, 0x26, 0x14, 0xfa, 0x3e, 0xb0, 0x5c, 0x60, 0xbe,
  0xb5, 0x27, 0x20, 0xbc, 0x10, 0x45, 0xf9, 0xbe, 0x81, 0x24, 0xcc, 0x3a,
  0xc8, 0x77, 0x42, 0x3f, 0x0e, 0xcf, 0x3b, 0xbf, 0xcb, 0x76, 0x54, 0x3e,
  0x40, 0xd2, 0xf5, 0x3e, 0xc6, 0x6a, 0xa0, 0x3e, 0x50, 0xae, 0x0a, 0x3e,
  0x78, 0x07, 0x93, 0xbe, 0x60, 0x94, 0x10, 0xbe, 0x66, 0xff, 0xff, 0xff,
  0x04, 0x00, 0x00, 0x00, 0x40, 0x00, 0x00, 0x00, 0x1b, 0x4c, 0xee, 0x3f,
  0x0d, 0xf2, 0xaa, 0xbf, 0xa4, 0x05, 0xef, 0xbe, 0xb1, 0xff, 0x88, 0xbf,
  0xac, 0xe5, 0xeb, 0xbe, 0x81, 0x1a, 0x14, 0xb8, 0xfc, 0xf3, 0xcf, 0xbe,
  0x2e, 0x68, 0x32, 0xbc, 0x36, 0x92, 0xf9, 0xbf, 0x8c, 0x09, 0xec, 0xbe,
  0xf8, 0x65, 0x03, 0xbe, 0x53, 0xe2, 0xe5, 0xbf, 0xc7, 0x74, 0xc1, 0xbb,
  0x8a, 0xd8, 0x7c, 0xbf, 0xf8, 0x6a, 0xe7, 0x3f, 0xc0, 0x76, 0x59, 0xbf,
  0xb2, 0xff, 0xff, 0xff, 0x04, 0x00, 0x00, 0x00, 0x40, 0x00, 0x00, 0x00,
  0xaf, 0xf9, 0xec, 0x3e, 0x33, 0x45, 0xf8, 0x3e, 0x7a, 0x5f, 0x2a, 0x3e,
  0x18, 0xf5, 0xd0, 0xbd, 0x88, 0xff, 0x66, 0xbd, 0xfe, 0x1f, 0x79, 0xbe,
  0x34, 0xb1, 0x06, 0x3f, 0x39, 0x76, 0x2b, 0x3e, 0x0f, 0xe9, 0x80, 0xbe,
  0xa0, 0xca, 0x9f, 0xbc, 0x66, 0x91, 0xef, 0x3e, 0x14, 0xab, 0x99, 0xbd,
  0xd1, 0xec, 0x56, 0xbf, 0x41, 0x10, 0x81, 0xbd, 0x57, 0xcf, 0xa0, 0xbe,
  0xc0, 0x38, 0x13, 0xbe, 0x00, 0x00, 0x06, 0x00, 0x08, 0x00, 0x04, 0x00,
  0x06, 0x00, 0x00, 0x00, 0x04, 0x00, 0x00, 0x00, 0x04, 0x00, 0x00, 0x00,
  0x4e, 0x2f, 0x2e, 0xbf, 0x68, 0xfc, 0xff, 0xff, 0x6c, 0xfc, 0xff, 0xff,
  0x0f, 0x00, 0x00, 0x00, 0x4d, 0x4c, 0x49, 0x52, 0x20, 0x43, 0x6f, 0x6e,
  0x76, 0x65, 0x72, 0x74, 0x65, 0x64, 0x2e, 0x00, 0x01, 0x00, 0x00, 0x00,
  0x14, 0x00, 0x00, 0x00, 0x00, 0x00, 0x0e, 0x00, 0x18, 0x00, 0x14, 0x00,
  0x10, 0x00, 0x0c, 0x00, 0x08, 0x00, 0x04, 0x00, 0x0e, 0x00, 0x00, 0x00,
  0x14, 0x00, 0x00, 0x00, 0x1c, 0x00, 0x00, 0x00, 0xd8, 0x00, 0x00, 0x00,
  0xdc, 0x00, 0x00, 0x00, 0xe0, 0x00, 0x00, 0x00, 0x04, 0x00, 0x00, 0x00,
  0x6d, 0x61, 0x69, 0x6e, 0x00, 0x00, 0x00, 0x00, 0x03, 0x00, 0x00, 0x00,
  0x80, 0x00, 0x00, 0x00, 0x38, 0x00, 0x00, 0x00, 0x04, 0x00, 0x00, 0x00,
  0x9a, 0xff, 0xff, 0xff, 0x10, 0x00, 0x00, 0x00, 0x00, 0x00, 0x00, 0x08,
  0x0c, 0x00, 0x00, 0x00, 0x10, 0x00, 0x00, 0x00, 0xe4, 0xfc, 0xff, 0xff,
  0x01, 0x00, 0x00, 0x00, 0x09, 0x00, 0x00, 0x00, 0x03, 0x00, 0x00, 0x00,
  0x08, 0x00, 0x00, 0x00, 0x06, 0x00, 0x00, 0x00, 0x01, 0x00, 0x00, 0x00,
  0xca, 0xff, 0xff, 0xff, 0x10, 0x00, 0x00, 0x00, 0x00, 0x00, 0x00, 0x08,
  0x10, 0x00, 0x00, 0x00, 0x14, 0x00, 0x00, 0x00, 0xba, 0xff, 0xff, 0xff,
  0x00, 0x00, 0x00, 0x01, 0x01, 0x00, 0x00, 0x00, 0x08, 0x00, 0x00, 0x00,
  0x03, 0x00, 0x00, 0x00, 0x07, 0x00, 0x00, 0x00, 0x05, 0x00, 0x00, 0x00,
  0x02, 0x00, 0x00, 0x00, 0x00, 0x00, 0x0e, 0x00, 0x16, 0x00, 0x00, 0x00,
  0x10, 0x00, 0x0c, 0x00, 0x0b, 0x00, 0x04, 0x00, 0x0e, 0x00, 0x00, 0x00,
  0x18, 0x00, 0x00, 0x00, 0x00, 0x00, 0x00, 0x08, 0x18, 0x00, 0x00, 0x00,
  0x1c, 0x00, 0x00, 0x00, 0x00, 0x00, 0x06, 0x00, 0x08, 0x00, 0x07, 0x00,
  0x06, 0x00, 0x00, 0x00, 0x00, 0x00, 0x00, 0x01, 0x01, 0x00, 0x00, 0x00,
  0x07, 0x00, 0x00, 0x00, 0x03, 0x00, 0x00, 0x00, 0x00, 0x00, 0x00, 0x00,
  0x04, 0x00, 0x00, 0x00, 0x03, 0x00, 0x00, 0x00, 0x01, 0x00, 0x00, 0x00,
  0x09, 0x00, 0x00, 0x00, 0x01, 0x00, 0x00, 0x00, 0x00, 0x00, 0x00, 0x00,
  0x0a, 0x00, 0x00, 0x00, 0x54, 0x02, 0x00, 0x00, 0x08, 0x02, 0x00, 0x00,
  0xd4, 0x01, 0x00, 0x00, 0xa0, 0x01, 0x00, 0x00, 0x68, 0x01, 0x00, 0x00,
  0x2c, 0x01, 0x00, 0x00, 0xf0, 0x00, 0x00, 0x00, 0xa0, 0x00, 0x00, 0x00,
  0x48, 0x00, 0x00, 0x00, 0x04, 0x00, 0x00, 0x00, 0xea, 0xfd, 0xff, 0xff,
  0x00, 0x00, 0x00, 0x01, 0x10, 0x00, 0x00, 0x00, 0x10, 0x00, 0x00, 0x00,
  0x0a, 0x00, 0x00, 0x00, 0x20, 0x00, 0x00, 0x00, 0xd4, 0xfd, 0xff, 0xff,
  0x11, 0x00, 0x00, 0x00, 0x50, 0x61, 0x72, 0x74, 0x69, 0x74, 0x69, 0x6f,
  0x6e, 0x65, 0x64, 0x43, 0x61, 0x6c, 0x6c, 0x3a, 0x30, 0x00, 0x00, 0x00,
  0x02, 0x00, 0x00, 0x00, 0x01, 0x00, 0x00, 0x00, 0x01, 0x00, 0x00, 0x00,
  0x2a, 0xfe, 0xff, 0xff, 0x00, 0x00, 0x00, 0x01, 0x10, 0x00, 0x00, 0x00,
  0x10, 0x00, 0x00, 0x00, 0x09, 0x00, 0x00, 0x00, 0x34, 0x00, 0x00, 0x00,
  0x14, 0xfe, 0xff, 0xff, 0x25, 0x00, 0x00, 0x00, 0x4d, 0x61, 0x74, 0x4d,
  0x75, 0x6c, 0x5f, 0x31, 0x3b, 0x6f, 0x6e, 0x6e, 0x78, 0x5f, 0x74, 0x66,
  0x5f, 0x70, 0x72, 0x65, 0x66, 0x69, 0x78, 0x5f, 0x2f, 0x52, 0x65, 0x6c,
  0x75, 0x5f, 0x31, 0x3b, 0x61, 0x64, 0x64, 0x5f, 0x31, 0x00, 0x00, 0x00,
  0x02, 0x00, 0x00, 0x00, 0x01, 0x00, 0x00, 0x00, 0x10, 0x00, 0x00, 0x00,
  0x7e, 0xfe, 0xff, 0xff, 0x00, 0x00, 0x00, 0x01, 0x10, 0x00, 0x00, 0x00,
  0x10, 0x00, 0x00, 0x00, 0x08, 0x00, 0x00, 0x00, 0x2c, 0x00, 0x00, 0x00,
  0x68, 0xfe, 0xff, 0xff, 0x1f, 0x00, 0x00, 0x00, 0x4d, 0x61, 0x74, 0x4d,
  0x75, 0x6c, 0x3b, 0x6f, 0x6e, 0x6e, 0x78, 0x5f, 0x74, 0x66, 0x5f, 0x70,
  0x72, 0x65, 0x66, 0x69, 0x78, 0x5f, 0x2f, 0x52, 0x65, 0x6c, 0x75, 0x3b,
  0x61, 0x64, 0x64, 0x00, 0x02, 0x00, 0x00, 0x00, 0x01, 0x00, 0x00, 0x00,
  0x10, 0x00, 0x00, 0x00, 0xca, 0xfe, 0xff, 0xff, 0x00, 0x00, 0x00, 0x01,
  0x10, 0x00, 0x00, 0x00, 0x10, 0x00, 0x00, 0x00, 0x07, 0x00, 0x00, 0x00,
  0x18, 0x00, 0x00, 0x00, 0xb4, 0xfe, 0xff, 0xff, 0x08, 0x00, 0x00, 0x00,
  0x4d, 0x61, 0x74, 0x4d, 0x75, 0x6c, 0x5f, 0x32, 0x00, 0x00, 0x00, 0x00,
  0x02, 0x00, 0x00, 0x00, 0x01, 0x00, 0x00, 0x00, 0x10, 0x00, 0x00, 0x00,
  0x02, 0xff, 0xff, 0xff, 0x00, 0x00, 0x00, 0x01, 0x10, 0x00, 0x00, 0x00,
  0x10, 0x00, 0x00, 0x00, 0x06, 0x00, 0x00, 0x00, 0x18, 0x00, 0x00, 0x00,
  0xec, 0xfe, 0xff, 0xff, 0x08, 0x00, 0x00, 0x00, 0x4d, 0x61, 0x74, 0x4d,
  0x75, 0x6c, 0x5f, 0x31, 0x00, 0x00, 0x00, 0x00, 0x02, 0x00, 0x00, 0x00,
  0x10, 0x00, 0x00, 0x00, 0x10, 0x00, 0x00, 0x00, 0x3a, 0xff, 0xff, 0xff,
  0x00, 0x00, 0x00, 0x01, 0x10, 0x00, 0x00, 0x00, 0x10, 0x00, 0x00, 0x00,
  0x05, 0x00, 0x00, 0x00, 0x14, 0x00, 0x00, 0x00, 0x24, 0xff, 0xff, 0xff,
  0x06, 0x00, 0x00, 0x00, 0x4d, 0x61, 0x74, 0x4d, 0x75, 0x6c, 0x00, 0x00,
  0x02, 0x00, 0x00, 0x00, 0x10, 0x00, 0x00, 0x00, 0x01, 0x00, 0x00, 0x00,
  0x6e, 0xff, 0xff, 0xff, 0x00, 0x00, 0x00, 0x01, 0x10, 0x00, 0x00, 0x00,
  0x10, 0x00, 0x00, 0x00, 0x04, 0x00, 0x00, 0x00, 0x14, 0x00, 0x00, 0x00,
  0x58, 0xff, 0xff, 0xff, 0x07, 0x00, 0x00, 0x00, 0x43, 0x6f, 0x6e, 0x73,
  0x74, 0x5f, 0x34, 0x00, 0x01, 0x00, 0x00, 0x00, 0x10, 0x00, 0x00, 0x00,
  0x9e, 0xff, 0xff, 0xff, 0x00, 0x00, 0x00, 0x01, 0x10, 0x00, 0x00, 0x00,
  0x10, 0x00, 0x00, 0x00, 0x03, 0x00, 0x00, 0x00, 0x14, 0x00, 0x00, 0x00,
  0x88, 0xff, 0xff, 0xff, 0x07, 0x00, 0x00, 0x00, 0x43, 0x6f, 0x6e, 0x73,
  0x74, 0x5f, 0x32, 0x00, 0x01, 0x00, 0x00, 0x00, 0x10, 0x00, 0x00, 0x00,
  0xce, 0xff, 0xff, 0xff, 0x00, 0x00, 0x00, 0x01, 0x10, 0x00, 0x00, 0x00,
  0x10, 0x00, 0x00, 0x00, 0x02, 0x00, 0x00, 0x00, 0x14, 0x00, 0x00, 0x00,
  0xb8, 0xff, 0xff, 0xff, 0x05, 0x00, 0x00, 0x00, 0x43, 0x6f, 0x6e, 0x73,
  0x74, 0x00, 0x00, 0x00, 0x01, 0x00, 0x00, 0x00, 0x01, 0x00, 0x00, 0x00,
  0x00, 0x00, 0x16, 0x00, 0x18, 0x00, 0x14, 0x00, 0x00, 0x00, 0x10, 0x00,
  0x0c, 0x00, 0x08, 0x00, 0x00, 0x00, 0x00, 0x00, 0x00, 0x00, 0x07, 0x00,
  0x16, 0x00, 0x00, 0x00, 0x00, 0x00, 0x00, 0x01, 0x14, 0x00, 0x00, 0x00,
  0x14, 0x00, 0x00, 0x00, 0x01, 0x00, 0x00, 0x00, 0x40, 0x00, 0x00, 0x00,
  0x04, 0x00, 0x04, 0x00, 0x04, 0x00, 0x00, 0x00, 0x2d, 0x00, 0x00, 0x00,
  0x73, 0x65, 0x72, 0x76, 0x69, 0x6e, 0x67, 0x5f, 0x64, 0x65, 0x66, 0x61,
  0x75, 0x6c, 0x74, 0x5f, 0x6f, 0x6e, 0x6e, 0x78, 0x5f, 0x74, 0x66, 0x5f,
  0x5f, 0x74, 0x66, 0x5f, 0x47, 0x65, 0x6d, 0x6d, 0x5f, 0x30, 0x5f, 0x31,
  0x63, 0x38, 0x63, 0x33, 0x33, 0x31, 0x33, 0x3a, 0x30, 0x00, 0x00, 0x00,
  0x02, 0x00, 0x00, 0x00, 0x01, 0x00, 0x00, 0x00, 0x01, 0x00, 0x00, 0x00,
  0x01, 0x00, 0x00, 0x00, 0x10, 0x00, 0x00, 0x00, 0x0c, 0x00, 0x0c, 0x00,
  0x0b, 0x00, 0x00, 0x00, 0x00, 0x00, 0x04, 0x00, 0x0c, 0x00, 0x00, 0x00,
  0x09, 0x00, 0x00, 0x00, 0x00, 0x00, 0x00, 0x09
};
unsigned int ___models_sine_model_torch_tflite_len = 2864;
